<pad>	0
</s>	0
<unk>	0
<|endoftext|>	0
<|user|>	0
<|assistant|>	0
in	-0
▁t	-1
▁a	-2
on	-3
re	-4
ti	-5
er	-6
en	-7
▁th	-8
▁s	-9
es	-10
al	-11
or	-12
ing	-13
▁c	-14
at	-15
▁the	-16
tion	-17
ed	-18
▁p	-19
is	-20
an	-21
ro	-22
▁m	-23
▁f	-24
it	-25
▁an	-26
▁w	-27
▁o	-28
▁d	-29
▁in	-30
ar	-31
▁re	-32
le	-33
as	-34
▁b	-35
▁and	-36
▁e	-37
ic	-38
ent	-39
el	-40
ation	-41
▁to	-42
et	-43
mp	-44
▁of	-45
ec	-46
od	-47
st	-48
ur	-49
ac	-50
▁T	-51
ly	-52
ce	-53
▁l	-54
▁h	-55
ig	-56
ul	-57
ut	-58
ve	-59
▁con	-60
ra	-61
un	-62
▁co	-63
▁g	-64
us	-65
▁st	-66
▁A	-67
il	-68
▁S	-69
ver	-70
id	-71
▁pro	-72
▁n	-73
uc	-74
ow	-75
ate	-76
▁on	-77
▁for	-78
▁ex	-79
▁is	-80
▁L	-81
ith	-82
ab	-83
ge	-84
he	-85
im	-86
▁C	-87
▁mod	-88
res	-89
if	-90
ot	-91
▁M	-92
▁with	-93
ity	-94
ts	-95
ch	-96
ol	-97
ri	-98
▁as	-99
▁R	-100
qu	-101
▁model	-102
ment	-103
▁that	-104
tic	-105
▁we	-106
▁W	-107
▁I	-108
orm	-109
ter	-110
em	-111
▁v	-112
ain	-113
ess	-114
iz	-115
▁P	-116
form	-117
▁wh	-118
▁ac	-119
▁comp	-120
os	-121
▁F	-122
▁D	-123
▁E	-124
per	-125
ist	-126
tive	-127
▁al	-128
om	-129
▁su	-130
ir	-131
am	-132
igh	-133
▁are	-134
ance	-135
ren	-136
▁G	-137
▁per	-138
val	-139
age	-140
ore	-141
th	-142
und	-143
ap	-144
▁en	-145
LM	-146
ener	-147
ign	-148
▁cont	-149
ally	-150
ion	-151
▁res	-152
rain	-153
▁us	-154
▁The	-155
ud	-156
str	-157
▁We	-158
▁r	-159
▁i	-160
ep	-161
ine	-162
▁by	-163
ex	-164
rom	-165
ff	-166
pp	-167
ated	-168
ure	-169
▁Th	-170
vel	-171
▁from	-172
▁be	-173
ad	-174
▁int	-175
▁or	-176
oc	-177
ach	-178
▁gener	-179
ks	-180
▁B	-181
▁In	-182
ens	-183
▁ad	-184
▁it	-185
ers	-186
▁O	-187
ting	-188
ies	-189
ations	-190
ason	-191
▁sh	-192
▁str	-193
▁le	-194
▁dat	-195
ay	-196
▁y	-197
▁sc	-198
▁models	-199
fe	-200
▁H	-201
pec	-202
▁qu	-203
▁1	-204
ew	-205
ext	-206
valu	-207
tions	-208
▁LLM	-209
and	-210
▁at	-211
eth	-212
asoning	-213
ard	-214
um	-215
ual	-216
all	-217
red	-218
▁se	-219
uct	-220
ct	-221
▁this	-222
og	-223
feren	-224
able	-225
ss	-226
our	-227
pl	-228
ag	-229
ific	-230
est	-231
▁perform	-232
▁imp	-233
ross	-234
ates	-235
▁ch	-236
▁reasoning	-237
▁evalu	-238
ant	-239
ence	-240
ect	-241
se	-242
ese	-243
▁k	-244
vid	-245
ork	-246
ased	-247
ulti	-248
▁Q	-249
▁app	-250
▁di	-251
ents	-252
ug	-253
▁tas	-254
▁inc	-255
▁rep	-256
abil	-257
▁N	-258
ail	-259
ang	-260
▁This	-261
ethod	-262
▁de	-263
▁=	-264
ile	-265
iti	-266
▁To	-267
ong	-268
ves	-269
▁eff	-270
▁un	-271
enc	-272
▁can	-273
mpl	-274
ven	-275
▁our	-276
▁tr	-277
▁ag	-278
▁performance	-279
act	-280
▁par	-281
di	-282
▁train	-283
up	-284
▁high	-285
mar	-286
ich	-287
end	-288
▁inter	-289
ating	-290
▁%	-291
▁set	-292
▁across	-293
▁pre	-294
ans	-295
ack	-296
ak	-297
ari	-298
▁multi	-299
▁over	-300
▁cons	-301
cess	-302
tim	-303
ical	-304
▁cl	-305
▁out	-306
op	-307
ding	-308
ort	-309
bu	-310
ench	-311
ress	-312
▁method	-313
▁sa	-314
▁sp	-315
▁all	-316
ative	-317
▁sy	-318
▁und	-319
duc	-320
▁which	-321
aset	-322
▁ro	-323
▁cor	-324
▁V	-325
ib	-326
ram	-327
▁sub	-328
▁not	-329
enti	-330
ous	-331
here	-332
▁resul	-333
angu	-334
vi	-335
▁dif	-336
out	-337
put	-338
▁2	-339
oth	-340
ric	-341
ugh	-342
ory	-343
ization	-344
ll	-345
rect	-346
▁under	-347
ability	-348
▁show	-349
▁where	-350
▁op	-351
ase	-352
ree	-353
ten	-354
ther	-355
▁each	-356
tri	-357
ary	-358
ive	-359
▁rel	-360
resent	-361
▁acc	-362
▁ab	-363
▁data	-364
▁training	-365
▁expl	-366
▁suc	-367
ction	-368
ight	-369
▁dataset	-370
ass	-371
▁while	-372
pon	-373
ors	-374
▁-	-375
ou	-376
ency	-377
▁tok	-378
ateg	-379
▁more	-380
▁these	-381
ains	-382
▁ob	-383
▁bet	-384
▁cap	-385
▁provid	-386
arg	-387
ference	-388
ue	-389
ici	-390
arn	-391
based	-392
we	-393
▁exper	-394
▁ne	-395
▁Con	-396
▁St	-397
ments	-398
low	-399
aly	-400
▁U	-401
ip	-402
mb	-403
ost	-404
▁LLMs	-405
▁des	-406
▁impro	-407
▁dec	-408
▁dis	-409
▁j	-410
anc	-411
ving	-412
▁+	-413
vers	-414
▁det	-415
pecific	-416
acy	-417
now	-418
▁sign	-419
▁into	-420
wen	-421
anguage	-422
ie	-423
▁ind	-424
▁dist	-425
enchmar	-426
ill	-427
ath	-428
ality	-429
▁For	-430
▁ass	-431
vely	-432
▁Ex	-433
▁promp	-434
ures	-435
ize	-436
▁fin	-437
yp	-438
▁rec	-439
ech	-440
ose	-441
▁val	-442
▁results	-443
▁effec	-444
▁Co	-445
▁appro	-446
▁pr	-447
arch	-448
ward	-449
are	-450
▁me	-451
▁Qwen	-452
led	-453
ave	-454
▁fram	-455
▁benchmar	-456
antic	-457
▁tasks	-458
ati	-459
wo	-460
formation	-461
▁struct	-462
ty	-463
▁using	-464
emantic	-465
▁comple	-466
dition	-467
ik	-468
▁prop	-469
ized	-470
mple	-471
▁Re	-472
▁its	-473
ust	-474
▁their	-475
ace	-476
tical	-477
▁3	-478
ise	-479
ely	-480
ved	-481
▁methods	-482
▁both	-483
▁K	-484
▁gro	-485
▁consist	-486
struc	-487
▁task	-488
ide	-489
▁pl	-490
▁than	-491
stem	-492
▁two	-493
▁such	-494
▁evaluation	-495
sw	-496
ision	-497
ode	-498
▁work	-499
asel	-500
tain	-501
▁trans	-502
trie	-503
ph	-504
▁represent	-505
▁fe	-506
▁know	-507
▁dem	-508
▁retrie	-509
ween	-510
tern	-511
▁ar	-512
▁rem	-513
chie	-514
tr	-515
▁between	-516
▁achie	-517
▁have	-518
▁text	-519
ial	-520
▁learn	-521
ages	-522
uracy	-523
▁but	-524
ledge	-525
ness	-526
▁analy	-527
▁no	-528
▁differen	-529
▁you	-530
▁Wh	-531
▁framew	-532
etric	-533
▁ref	-534
ribu	-535
▁semantic	-536
level	-537
▁process	-538
so	-539
ities	-540
ful	-541
ines	-542
PT	-543
00	-544
lud	-545
rough	-546
ural	-547
ently	-548
▁system	-549
▁context	-550
uman	-551
▁only	-552
▁align	-553
lic	-554
▁information	-555
king	-556
▁form	-557
▁tra	-558
▁pa	-559
struct	-560
eng	-561
▁requ	-562
▁prob	-563
uring	-564
ied	-565
▁generation	-566
▁Mod	-567
anti	-568
ia	-569
▁also	-570
ject	-571
ollow	-572
▁conf	-573
▁language	-574
▁approach	-575
▁do	-576
ast	-577
du	-578
▁ques	-579
aus	-580
▁An	-581
▁sele	-582
ds	-583
▁up	-584
ish	-585
▁basel	-586
jec	-587
▁sim	-588
ues	-589
▁com	-590
▁answ	-591
verage	-592
▁pred	-593
▁intro	-594
onstr	-595
sis	-596
▁he	-597
▁through	-598
▁framework	-599
▁optim	-600
urther	-601
▁demonstr	-602
▁step	-603
▁respon	-604
▁te	-605
▁vari	-606
▁stud	-607
▁includ	-608
▁knowledge	-609
irst	-610
▁How	-611
▁your	-612
▁when	-613
ome	-614
ition	-615
ix	-616
istic	-617
▁id	-618
te	-619
ted	-620
▁Pro	-621
▁indic	-622
not	-623
▁use	-624
ser	-625
raph	-626
atic	-627
▁strateg	-628
lo	-629
▁def	-630
rent	-631
▁Our	-632
ever	-633
duce	-634
▁vis	-635
▁Model	-636
▁has	-637
▁different	-638
abl	-639
imit	-640
ms	-641
▁accuracy	-642
RA	-643
arget	-644
▁mat	-645
▁quer	-646
▁ver	-647
▁tim	-648
▁As	-649
ound	-650
arge	-651
▁design	-652
▁sampl	-653
ational	-654
▁dom	-655
▁comput	-656
yn	-657
▁man	-658
entif	-659
one	-660
▁setting	-661
ax	-662
ular	-663
uning	-664
tively	-665
ution	-666
▁low	-667
ite	-668
▁human	-669
oin	-670
ub	-671
ame	-672
▁three	-673
▁token	-674
▁typ	-675
▁predic	-676
▁GPT	-677
▁follow	-678
▁pri	-679
▁limit	-680
ases	-681
struction	-682
ering	-683
ource	-684
of	-685
PO	-686
▁fine	-687
3-	-688
ell	-689
amet	-690
ey	-691
.5	-692
▁improve	-693
▁requi	-694
▁output	-695
ilar	-696
▁general	-697
▁reward	-698
ike	-699
▁how	-700
▁target	-701
its	-702
▁structure	-703
▁scal	-704
cep	-705
▁strong	-706
▁These	-707
lation	-708
▁main	-709
▁evaluate	-710
als	-711
ond	-712
▁4	-713
▁/	-714
▁supp	-715
ribution	-716
▁mem	-717
uld	-718
ple	-719
▁tokens	-720
▁lay	-721
▁pers	-722
▁dep	-723
tention	-724
olic	-725
▁Ac	-726
▁experim	-727
ha	-728
▁ser	-729
bust	-730
▁aut	-731
▁log	-732
▁input	-733
▁disc	-734
err	-735
eg	-736
elf	-737
▁visual	-738
▁without	-739
urn	-740
ok	-741
icit	-742
rained	-743
▁wor	-744
▁long	-745
▁inst	-746
▁reg	-747
▁pos	-748
ces	-749
▁first	-750
▁add	-751
▁prompt	-752
▁retrieval	-753
▁signific	-754
ically	-755
rop	-756
▁cur	-757
▁metric	-758
▁enc	-759
▁En	-760
ingle	-761
▁datasets	-762
▁learning	-763
▁real	-764
action	-765
▁correct	-766
▁However	-767
mod	-768
▁im	-769
▁incre	-770
▁further	-771
abel	-772
▁ens	-773
▁benchmarks	-774
▁may	-775
▁gu	-776
▁comm	-777
vant	-778
▁5	-779
▁adap	-780
ores	-781
▁most	-782
▁fail	-783
▁significant	-784
▁exp	-785
ber	-786
ions	-787
▁they	-788
▁often	-789
con	-790
tiv	-791
mbed	-792
itive	-793
▁identif	-794
ult	-795
ether	-796
▁num	-797
QA	-798
▁compar	-799
cri	-800
▁robust	-801
iel	-802
-7	-803
▁quality	-804
▁time	-805
▁Ch	-806
old	-807
inal	-808
ld	-809
ories	-810
▁explicit	-811
▁complex	-812
▁valid	-813
ility	-814
havi	-815
ined	-816
ini	-817
▁em	-818
ocus	-819
▁shown	-820
echan	-821
isting	-822
▁u	-823
ef	-824
ynam	-825
▁syn	-826
til	-827
▁obser	-828
▁super	-829
▁Y	-830
olog	-831
▁other	-832
ges	-833
▁den	-834
▁Un	-835
▁state	-836
▁ra	-837
▁analysis	-838
▁one	-839
▁err	-840
ather	-841
▁chall	-842
ared	-843
▁based	-844
▁effici	-845
▁feat	-846
▁similar	-847
▁answer	-848
vol	-849
▁detail	-850
ensive	-851
▁ground	-852
aw	-853
▁off	-854
ER	-855
▁single	-856
▁tool	-857
eep	-858
▁{	-859
▁via	-860
ough	-861
ull	-862
ditional	-863
▁pat	-864
▁used	-865
ification	-866
▁pres	-867
▁const	-868
earch	-869
▁fun	-870
▁behavi	-871
▁alignment	-872
andard	-873
abilities	-874
▁direct	-875
vidence	-876
▁ext	-877
ection	-878
ses	-879
▁ph	-880
▁annot	-881
FT	-882
▁specific	-883
ison	-884
▁mechan	-885
▁new	-886
▁test	-887
▁top	-888
osed	-889
▁Sc	-890
▁was	-891
ism	-892
▁mak	-893
▁inference	-894
▁score	-895
oy	-896
▁focus	-897
art	-898
▁exa	-899
erm	-900
▁address	-901
▁within	-902
mbedding	-903
▁It	-904
▁contr	-905
▁then	-906
stand	-907
ocu	-908
lam	-909
▁agents	-910
ier	-911
till	-912
▁fact	-913
raining	-914
▁diver	-915
iven	-916
▁go	-917
▁there	-918
wor	-919
▁paramet	-920
▁Ad	-921
ma	-922
rit	-923
▁back	-924
▁large	-925
▁bi	-926
▁same	-927
ould	-928
▁agent	-929
ential	-930
▁enabl	-931
perform	-932
ety	-933
▁diff	-934
▁query	-935
▁them	-936
▁sm	-937
▁	-938
e	-939
t	-940
i	-941
a	-942
n	-943
o	-944
s	-945
r	-946
l	-947
c	-948
d	-949
h	-950
u	-951
m	-952
p	-953
g	-954
f	-955
y	-956
v	-957
b	-958
w	-959
.	-960
,	-961
-	-962
k	-963
T	-964
x	-965
L	-966
A	-967
M	-968
S	-969
R	-970
C	-971
I	-972
P	-973
E	-974
B	-975
D	-976
F	-977
z	-978
q	-979
1	-980
:	-981
G	-982
W	-983
O	-984
2	-985
0	-986
j	-987
N	-988
H	-989
3	-990
Q	-991
V	-992
%	-993
5	-994
=	-995
U	-996
4	-997
K	-998
/	-999
8	-1000
+	-1001
7	-1002
6	-1003
?	-1004
;	-1005
9	-1006
Y	-1007
X	-1008
'	-1009
"	-1010
J	-1011
{	-1012
}	-1013
|	-1014
_	-1015
*	-1016
!	-1017
