<pad>	0
</s>	0
<unk>	0
<|endoftext|>	0
<|user|>	0
<|assistant|>	0
▁a	-0
▁t	-1
in	-2
re	-3
he	-4
on	-5
▁s	-6
er	-7
▁c	-8
ou	-9
at	-10
or	-11
▁w	-12
es	-13
is	-14
en	-15
▁the	-16
▁p	-17
it	-18
▁f	-19
nd	-20
▁b	-21
ing	-22
▁m	-23
an	-24
ed	-25
al	-26
▁d	-27
▁and	-28
▁in	-29
▁to	-30
▁o	-31
ar	-32
ic	-33
ion	-34
le	-35
▁y	-36
ro	-37
▁h	-38
▁you	-39
▁re	-40
as	-41
▁l	-42
▁e	-43
▁th	-44
ent	-45
▁n	-46
▁of	-47
▁is	-48
il	-49
om	-50
▁T	-51
us	-52
ve	-53
ly	-54
ct	-55
▁g	-56
et	-57
▁for	-58
ot	-59
ow	-60
ce	-61
▁be	-62
ay	-63
▁st	-64
ver	-65
st	-66
ation	-67
im	-68
id	-69
ith	-70
▁on	-71
ig	-72
▁The	-73
▁are	-74
▁I	-75
▁pro	-76
▁your	-77
ra	-78
▁with	-79
ll	-80
ch	-81
ur	-82
se	-83
▁con	-84
▁W	-85
ess	-86
ol	-87
ers	-88
▁an	-89
ut	-90
▁he	-91
▁we	-92
ad	-93
ir	-94
if	-95
am	-96
oo	-97
out	-98
▁it	-99
▁A	-100
▁com	-101
our	-102
▁can	-103
pp	-104
▁u	-105
▁that	-106
ke	-107
ul	-108
▁ex	-109
▁ha	-110
ment	-111
ore	-112
▁or	-113
ge	-114
ri	-115
ill	-116
▁ne	-117
▁as	-118
qu	-119
ate	-120
▁se	-121
est	-122
ab	-123
▁de	-124
▁su	-125
▁us	-126
ity	-127
▁S	-128
ter	-129
▁this	-130
ort	-131
▁not	-132
ck	-133
▁al	-134
▁v	-135
▁wh	-136
ies	-137
ive	-138
ist	-139
ure	-140
▁do	-141
ect	-142
ant	-143
her	-144
▁ch	-145
ld	-146
▁H	-147
ust	-148
▁Th	-149
▁sh	-150
igh	-151
▁r	-152
▁have	-153
▁i	-154
nt	-155
ain	-156
▁en	-157
▁ad	-158
op	-159
art	-160
▁at	-161
per	-162
ial	-163
em	-164
ook	-165
ome	-166
rom	-167
▁C	-168
▁pl	-169
▁le	-170
▁Y	-171
▁by	-172
os	-173
▁will	-174
▁j	-175
ions	-176
▁wor	-177
ail	-178
▁was	-179
▁sp	-180
for	-181
end	-182
pt	-183
▁ac	-184
▁our	-185
un	-186
ost	-187
▁from	-188
res	-189
red	-190
ight	-191
so	-192
▁This	-193
ice	-194
ie	-195
very	-196
ould	-197
▁P	-198
▁ab	-199
▁We	-200
age	-201
el	-202
ard	-203
ud	-204
iv	-205
▁comp	-206
and	-207
form	-208
able	-209
▁ma	-210
▁more	-211
▁cont	-212
ally	-213
▁B	-214
▁lo	-215
▁k	-216
▁all	-217
▁te	-218
th	-219
▁It	-220
▁Wh	-221
▁me	-222
▁ser	-223
ide	-224
▁fe	-225
all	-226
ance	-227
act	-228
ip	-229
▁also	-230
are	-231
um	-232
rou	-233
ime	-234
ff	-235
ine	-236
od	-237
▁app	-238
gh	-239
ase	-240
ite	-241
ign	-242
▁im	-243
▁qu	-244
cess	-245
▁res	-246
▁int	-247
ac	-248
▁F	-249
▁M	-250
▁tr	-251
▁cl	-252
▁You	-253
▁work	-254
▁so	-255
▁O	-256
▁out	-257
▁has	-258
ated	-259
ind	-260
cl	-261
ib	-262
ong	-263
ep	-264
one	-265
▁any	-266
ther	-267
du	-268
ack	-269
ag	-270
▁about	-271
▁my	-272
lp	-273
ations	-274
iz	-275
ast	-276
▁their	-277
▁serv	-278
▁D	-279
▁time	-280
▁un	-281
pl	-282
▁off	-283
ous	-284
ere	-285
▁man	-286
ans	-287
▁em	-288
ence	-289
▁help	-290
▁need	-291
▁How	-292
reat	-293
▁may	-294
▁whe	-295
ical	-296
ree	-297
▁What	-298
ike	-299
ick	-300
▁up	-301
ec	-302
ult	-303
▁E	-304
▁tra	-305
bs	-306
ional	-307
ak	-308
▁L	-309
ood	-310
▁new	-311
▁dis	-312
▁what	-313
ress	-314
▁R	-315
▁imp	-316
og	-317
▁exper	-318
ire	-319
▁one	-320
▁like	-321
▁prov	-322
ear	-323
▁comm	-324
▁get	-325
▁ev	-326
ach	-327
▁how	-328
▁N	-329
ry	-330
ices	-331
ount	-332
ays	-333
▁inform	-334
▁rec	-335
▁no	-336
ark	-337
▁rep	-338
▁they	-339
ace	-340
▁cons	-341
▁these	-342
ents	-343
▁ag	-344
ments	-345
▁bu	-346
now	-347
▁per	-348
ings	-349
▁part	-350
▁ro	-351
▁them	-352
av	-353
ors	-354
▁but	-355
▁co	-356
ink	-357
▁other	-358
▁add	-359
▁pre	-360
pport	-361
▁every	-362
▁information	-363
ap	-364
row	-365
▁acc	-366
ame	-367
▁ind	-368
▁go	-369
▁sc	-370
▁In	-371
ue	-372
lease	-373
ful	-374
vel	-375
ass	-376
▁does	-377
ild	-378
ru	-379
▁am	-380
ens	-381
▁some	-382
ility	-383
ces	-384
clud	-385
▁ar	-386
▁des	-387
ary	-388
▁They	-389
ile	-390
▁use	-391
rough	-392
▁know	-393
ures	-394
duct	-395
▁ke	-396
▁bl	-397
iew	-398
▁includ	-399
fere	-400
ake	-401
ater	-402
ific	-403
nder	-404
▁pr	-405
ience	-406
▁if	-407
▁sa	-408
▁bet	-409
li	-410
ub	-411
▁should	-412
▁cook	-413
oy	-414
▁requ	-415
▁pe	-416
▁there	-417
riv	-418
ms	-419
ons	-420
iness	-421
▁only	-422
▁bus	-423
ities	-424
ia	-425
te	-426
▁when	-427
▁dat	-428
ose	-429
▁act	-430
▁make	-431
▁fo	-432
▁through	-433
▁look	-434
▁inv	-435
ber	-436
ich	-437
▁over	-438
lect	-439
▁dif	-440
▁support	-441
▁reg	-442
▁just	-443
▁If	-444
▁into	-445
hing	-446
wn	-447
▁here	-448
▁than	-449
▁prof	-450
ten	-451
▁gu	-452
ates	-453
▁pers	-454
▁G	-455
▁bec	-456
arn	-457
▁fl	-458
cial	-459
lic	-460
▁been	-461
ting	-462
▁email	-463
▁business	-464
▁adv	-465
ond	-466
▁want	-467
▁play	-468
▁under	-469
▁product	-470
▁pur	-471
▁sec	-472
ible	-473
vers	-474
▁opt	-475
▁who	-476
▁services	-477
▁sy	-478
▁were	-479
▁inter	-480
ne	-481
ord	-482
ert	-483
ics	-484
ound	-485
ition	-486
ople	-487
ual	-488
▁ins	-489
▁her	-490
▁che	-491
ory	-492
hed	-493
▁his	-494
ough	-495
▁data	-496
ious	-497
ang	-498
▁pol	-499
▁process	-500
▁fin	-501
ise	-502
▁see	-503
oth	-504
▁col	-505
▁ph	-506
▁very	-507
ts	-508
▁would	-509
oin	-510
▁provid	-511
rib	-512
fore	-513
▁spec	-514
▁most	-515
▁sm	-516
▁fir	-517
▁cle	-518
▁person	-519
pect	-520
▁inst	-521
▁These	-522
▁eff	-523
▁mo	-524
ract	-525
▁rem	-526
▁long	-527
▁its	-528
▁He	-529
▁read	-530
▁experience	-531
hip	-532
▁differe	-533
▁inc	-534
▁own	-535
ustom	-536
its	-537
own	-538
▁well	-539
▁people	-540
we	-541
ily	-542
▁av	-543
ever	-544
▁ass	-545
ks	-546
xt	-547
▁design	-548
▁service	-549
ved	-550
▁mark	-551
day	-552
fter	-553
▁Please	-554
line	-555
▁cookies	-556
▁start	-557
▁used	-558
▁now	-559
▁fu	-560
▁ent	-561
▁But	-562
▁webs	-563
uch	-564
▁sign	-565
▁trans	-566
▁team	-567
cy	-568
▁tech	-569
ish	-570
uring	-571
▁many	-572
▁home	-573
▁care	-574
▁lif	-575
ced	-576
▁sub	-577
iss	-578
use	-579
▁back	-580
▁vis	-581
▁profess	-582
▁good	-583
ange	-584
ject	-585
▁find	-586
omet	-587
rit	-588
▁free	-589
les	-590
▁great	-591
▁custom	-592
▁mak	-593
▁mem	-594
▁att	-595
ade	-596
▁det	-597
▁loc	-598
▁rece	-599
▁high	-600
▁And	-601
▁ra	-602
ality	-603
▁first	-604
▁There	-605
▁str	-606
▁which	-607
▁right	-608
ict	-609
hen	-610
▁cas	-611
▁much	-612
als	-613
▁keep	-614
ased	-615
get	-616
lf	-617
▁pay	-618
ft	-619
▁had	-620
▁access	-621
▁car	-622
ating	-623
▁best	-624
▁rel	-625
old	-626
round	-627
any	-628
urn	-629
▁offer	-630
ular	-631
▁rev	-632
▁For	-633
pos	-634
ble	-635
alth	-636
llow	-637
▁commun	-638
ward	-639
▁website	-640
▁techn	-641
stem	-642
▁bel	-643
▁quest	-644
ways	-645
▁sim	-646
ty	-647
ple	-648
▁feat	-649
▁professional	-650
▁market	-651
▁priv	-652
▁set	-653
▁year	-654
ob	-655
▁aut	-656
▁fam	-657
▁fun	-658
omm	-659
▁feel	-660
stand	-661
▁before	-662
▁Our	-663
▁eas	-664
▁polic	-665
▁comple	-666
▁med	-667
▁pos	-668
▁Re	-669
▁mod	-670
▁day	-671
▁system	-672
▁All	-673
ool	-674
▁tw	-675
▁dec	-676
ential	-677
led	-678
ram	-679
ax	-680
▁even	-681
▁account	-682
su	-683
▁la	-684
▁way	-685
▁Do	-686
ered	-687
▁form	-688
▁could	-689
cus	-690
▁ens	-691
acy	-692
ause	-693
▁pub	-694
▁often	-695
▁conf	-696
ied	-697
▁St	-698
ning	-699
yp	-700
riend	-701
▁take	-702
ave	-703
ently	-704
▁life	-705
arch	-706
▁list	-707
▁resp	-708
▁Your	-709
▁gen	-710
▁build	-711
▁stud	-712
▁ed	-713
▁sol	-714
▁cost	-715
▁saf	-716
▁happ	-717
ize	-718
ually	-719
▁different	-720
▁br	-721
▁without	-722
▁love	-723
▁health	-724
▁import	-725
ted	-726
▁again	-727
▁mat	-728
▁after	-729
▁post	-730
▁learn	-731
▁However	-732
▁prog	-733
▁ter	-734
▁cre	-735
▁mon	-736
read	-737
▁sur	-738
▁real	-739
▁made	-740
▁policy	-741
ruct	-742
▁hand	-743
hes	-744
velop	-745
▁online	-746
ren	-747
▁char	-748
▁check	-749
ock	-750
▁val	-751
ower	-752
ss	-753
▁avail	-754
ank	-755
▁too	-756
up	-757
▁cur	-758
ving	-759
▁where	-760
▁personal	-761
ify	-762
ative	-763
cept	-764
ited	-765
▁main	-766
▁must	-767
▁somet	-768
▁book	-769
ages	-770
▁art	-771
▁always	-772
other	-773
ef	-774
▁develop	-775
air	-776
▁proper	-777
▁result	-778
▁lead	-779
▁both	-780
joy	-781
ont	-782
olog	-783
▁sk	-784
▁ref	-785
ability	-786
▁grow	-787
thing	-788
ired	-789
▁pat	-790
ness	-791
▁provide	-792
▁So	-793
▁link	-794
ves	-795
▁cour	-796
▁understand	-797
▁contact	-798
▁That	-799
▁typ	-800
▁ext	-801
ph	-802
▁met	-803
▁An	-804
gan	-805
▁op	-806
▁she	-807
▁such	-808
▁follow	-809
crib	-810
ys	-811
▁invest	-812
ee	-813
▁eng	-814
▁really	-815
nect	-816
▁site	-817
▁review	-818
▁did	-819
▁down	-820
▁aff	-821
▁don	-822
▁gl	-823
▁leg	-824
▁two	-825
▁sch	-826
▁appro	-827
oc	-828
▁better	-829
▁think	-830
▁available	-831
▁gam	-832
ized	-833
▁pass	-834
▁features	-835
▁prot	-836
▁call	-837
iate	-838
nce	-839
▁content	-840
▁exp	-841
▁ret	-842
▁family	-843
▁today	-844
▁pres	-845
▁perform	-846
ines	-847
▁important	-848
▁detail	-849
▁sl	-850
▁plan	-851
▁trad	-852
▁clean	-853
wor	-854
▁var	-855
ian	-856
▁min	-857
▁needs	-858
ational	-859
▁She	-860
gg	-861
self	-862
▁during	-863
fect	-864
ety	-865
▁address	-866
ident	-867
▁As	-868
▁privacy	-869
ix	-870
▁friend	-871
▁effect	-872
ins	-873
▁show	-874
▁enjoy	-875
less	-876
erest	-877
▁try	-878
ished	-879
▁gener	-880
▁stor	-881
ross	-882
▁wee	-883
ient	-884
urity	-885
imes	-886
▁bra	-887
rent	-888
ween	-889
▁company	-890
▁gra	-891
co	-892
▁those	-893
▁top	-894
ner	-895
▁aw	-896
ien	-897
▁When	-898
▁while	-899
ives	-900
▁each	-901
▁makes	-902
▁between	-903
▁contin	-904
▁full	-905
▁-	-906
▁oper	-907
▁still	-908
▁connect	-909
▁manage	-910
▁store	-911
ern	-912
▁sure	-913
▁buy	-914
▁protect	-915
▁world	-916
▁impro	-917
tle	-918
ateg	-919
▁Not	-920
▁brow	-921
▁end	-922
▁news	-923
▁stand	-924
bers	-925
▁found	-926
▁ask	-927
iving	-928
▁questions	-929
ather	-930
ically	-931
▁finan	-932
▁To	-933
▁ben	-934
▁tax	-935
▁reply	-936
uc	-937
▁cert	-938
▁place	-939
mit	-940
▁rest	-941
▁school	-942
▁quality	-943
▁def	-944
▁count	-945
aterial	-946
ining	-947
▁being	-948
ets	-949
irect	-950
▁change	-951
▁products	-952
▁expl	-953
▁something	-954
ason	-955
▁dep	-956
ention	-957
▁cor	-958
▁few	-959
alk	-960
der	-961
aking	-962
▁material	-963
▁bo	-964
arm	-965
▁	-966
e	-967
t	-968
a	-969
o	-970
i	-971
s	-972
n	-973
r	-974
l	-975
h	-976
d	-977
c	-978
u	-979
m	-980
p	-981
y	-982
f	-983
g	-984
.	-985
w	-986
b	-987
v	-988
k	-989
,	-990
T	-991
x	-992
I	-993
?	-994
-	-995
W	-996
A	-997
'	-998
q	-999
j	-1000
S	-1001
H	-1002
z	-1003
C	-1004
Y	-1005
!	-1006
P	-1007
B	-1008
F	-1009
M	-1010
O	-1011
D	-1012
E	-1013
L	-1014
R	-1015
N	-1016
G	-1017
